{
  "version": "1.0",
  "truncation": null,
  "padding": null,
  "added_tokens": [
    {
      "id": 0,
      "content": "[UNK]",
      "single_word": false,
      "lstrip": false,
      "rstrip": false,
      "normalized": false,
      "special": true
    },
    {
      "id": 1,
      "content": "[CLS]",
      "single_word": false,
      "lstrip": false,
      "rstrip": false,
      "normalized": false,
      "special": true
    },
    {
      "id": 2,
      "content": "[SEP]",
      "single_word": false,
      "lstrip": false,
      "rstrip": false,
      "normalized": false,
      "special": true
    },
    {
      "id": 3,
      "content": "[PAD]",
      "single_word": false,
      "lstrip": false,
      "rstrip": false,
      "normalized": false,
      "special": true
    },
    {
      "id": 4,
      "content": "[MASK]",
      "single_word": false,
      "lstrip": false,
      "rstrip": false,
      "normalized": false,
      "special": true
    }
  ],
  "normalizer": null,
  "pre_tokenizer": {
    "type": "Whitespace"
  },
  "post_processor": null,
  "decoder": null,
  "model": {
    "type": "BPE",
    "dropout": null,
    "unk_token": "[UNK]",
    "continuing_subword_prefix": null,
    "end_of_word_suffix": null,
    "fuse_unk": false,
    "byte_fallback": false,
    "ignore_merges": false,
    "vocab": {
      "[UNK]": 0,
      "[CLS]": 1,
      "[SEP]": 2,
      "[PAD]": 3,
      "[MASK]": 4,
      "!": 5,
      "\"": 6,
      "%": 7,
      "&": 8,
      "'": 9,
      "(": 10,
      ")": 11,
      "*": 12,
      "+": 13,
      ",": 14,
      "-": 15,
      ".": 16,
      "0": 17,
      "1": 18,
      "2": 19,
      "3": 20,
      "4": 21,
      "6": 22,
      "8": 23,
      ":": 24,
      ";": 25,
      "<": 26,
      "=": 27,
      ">": 28,
      "A": 29,
      "B": 30,
      "C": 31,
      "D": 32,
      "E": 33,
      "F": 34,
      "G": 35,
      "H": 36,
      "I": 37,
      "K": 38,
      "L": 39,
      "M": 40,
      "N": 41,
      "O": 42,
      "P": 43,
      "Q": 44,
      "R": 45,
      "S": 46,
      "T": 47,
      "U": 48,
      "V": 49,
      "W": 50,
      "X": 51,
      "Y": 52,
      "Z": 53,
      "[": 54,
      "\\": 55,
      "]": 56,
      "_": 57,
      "a": 58,
      "b": 59,
      "c": 60,
      "d": 61,
      "e": 62,
      "f": 63,
      "g": 64,
      "h": 65,
      "i": 66,
      "j": 67,
      "k": 68,
      "l": 69,
      "m": 70,
      "n": 71,
      "o": 72,
      "p": 73,
      "q": 74,
      "r": 75,
      "s": 76,
      "t": 77,
      "u": 78,
      "v": 79,
      "w": 80,
      "x": 81,
      "y": 82,
      "z": 83,
      "{": 84,
      "|": 85,
      "}": 86,
      "nt": 87,
      "re": 88,
      "er": 89,
      "st": 90,
      "le": 91,
      ");": 92,
      "at": 93,
      "co": 94,
      "in": 95,
      "->": 96,
      "ent": 97,
      "ro": 98,
      "ur": 99,
      "ret": 100,
      "s_": 101,
      "de": 102,
      "::": 103,
      "tr": 104,
      "urn": 105,
      "return": 106,
      "as": 107,
      "it": 108,
      "ser": 109,
      "ad": 110,
      "ar": 111,
      "if": 112,
      "nd": 113,
      "_co": 114,
      "ct": 115,
      "str": 116,
      "nf": 117,
      "len": 118,
      "ce": 119,
      "ntent": 120,
      "IN": 121,
      "eb": 122,
      "ate": 123,
      "ex": 124,
      "int": 125,
      "ue": 126,
      "et": 127,
      "ead": 128,
      "id": 129,
      "uct": 130,
      "struct": 131,
      "ntents": 132,
      "al": 133,
      "am": 134,
      "les": 135,
      "eadles": 136,
      "));": 137,
      "ac": 138,
      "ld": 139,
      "nst": 140,
      "po": 141,
      "us": 142,
      "D_": 143,
      "RE": 144,
      "const": 145,
      "ash": 146,
      "PR": 147,
      "ab": 148,
      "ed": 149,
      "mo": 150,
      "pt": 151,
      "serv": 152,
      "((": 153,
      "4_": 154,
      "ror": 155,
      "ndo": 156,
      "INT": 157,
      "Co": 158,
      "ER": 159,
      "_s": 160,
      "ag": 161,
      "ild": 162,
      "on": 163,
      "opt": 164,
      "uild": 165,
      "stat": 166,
      "arg": 167,
      "uilder": 168,
      "\",": 169,
      "),": 170,
      "Im": 171,
      "US": 172,
      "_C": 173,
      "builder": 174,
      "es": 175,
      "headles": 176,
      "ow": 177,
      "un": 178,
      "web": 179,
      "reate": 180,
      "error": 181,
      "attr": 182,
      "nfs": 183,
      "exe": 184,
      "ame": 185,
      "PRINT": 186,
      "headless_": 187,
      "web_co": 188,
      "DE": 189,
      "ND_": 190,
      "Web": 191,
      "_S": 192,
      "ch": 193,
      "ll": 194,
      "ry": 195,
      "rash": 196,
      "entry": 197,
      "des_": 198,
      "serdes_": 199,
      "USB": 200,
      "headless_web_co": 201,
      "headless_web_contents": 202,
      "Nexe": 203,
      "P_": 204,
      "_n": 205,
      "_p": 206,
      "ak": 207,
      "d_": 208,
      "gin": 209,
      "mac": 210,
      "oc": 211,
      "ot": 212,
      "que": 213,
      "th": 214,
      "res": 215,
      "server": 216,
      "Contents": 217,
      "age": 218,
      "macro": 219,
      "!=": 220,
      "AR": 221,
      "Create": 222,
      "PL": 223,
      "Re": 224,
      "el": 225,
      "gth": 226,
      "ic": 227,
      "is": 228,
      "ice": 229,
      "ms": 230,
      "mu": 231,
      "ph": 232,
      "rt": 233,
      "se": 234,
      "ze": 235,
      "dev": 236,
      "ase": 237,
      "length": 238,
      "poll": 239,
      "port": 240,
      "const_n": 241,
      "mode": 242,
      "nfs4_": 243,
      "WebContents": 244,
      "msg": 245,
      "mux": 246,
      "const_name": 247,
      "Crash": 248,
      "Did": 249,
      "Headles": 250,
      "NU": 251,
      "Pl": 252,
      "T_": 253,
      "_RE": 254,
      "_error": 255,
      "_serdes_": 256,
      "and": 257,
      "bac": 258,
      "c_": 259,
      "fattr": 260,
      "gd": 261,
      "get": 262,
      "ho": 263,
      "hand": 264,
      "ient": 265,
      "ion": 266,
      "l_": 267,
      "lot": 268,
      "lient": 269,
      "mas": 270,
      "ol": 271,
      "or": 272,
      "oce": 273,
      "pl": 274,
      "pp": 275,
      "ugin": 276,
      "udev": 277,
      "ntro": 278,
      "ing": 279,
      "usb": 280,
      "static": 281,
      "args": 282,
      "char": 283,
      "NexeDid": 284,
      "muxes": 285,
      "Headless": 286,
      "Plugin": 287,
      "_serdes_muxes": 288,
      "handle": 289,
      "lot_serdes_muxes": 290,
      "mask": 291,
      "ocelot_serdes_muxes": 292,
      "NexeDidCrash": 293,
      "\"));": 294,
      "(!": 295,
      "()": 296,
      "GIN": 297,
      "LL": 298,
      "ME": 299,
      "TS": 300,
      "UGIN": 301,
      "ZE": 302,
      "].": 303,
      "_d": 304,
      "_PRINT": 305,
      "bre": 306,
      "bit": 307,
      "client": 308,
      "hash": 309,
      "ig": 310,
      "ip": 311,
      "ize": 312,
      "jo": 313,
      "ket": 314,
      "lab": 315,
      "v8": 316,
      "st_": 317,
      "ind": 318,
      "it_": 319,
      "aram": 320,
      "all": 321,
      "service": 322,
      "status": 323,
      "Impl": 324,
      "own": 325,
      "ND_PRINT": 326,
      "ocket": 327,
      "PLUGIN": 328,
      "phy": 329,
      "NULL": 330,
      "HeadlessWebContents": 331,
      "_PRINTF": 332,
      "break": 333,
      "label": 334,
      "PLUGIN_PRINTF": 335,
      "\"\\": 336,
      "(*": 337,
      "AC": 338,
      "CO": 339,
      "EN": 340,
      "Fro": 341,
      "IL": 342,
      "OG": 343,
      "RL": 344,
      "Str": 345,
      "Un": 346,
      "_in": 347,
      "_service": 348,
      "be": 349,
      "bo": 350,
      "ctr": 351,
      "en": 352,
      "im": 353,
      "ique": 354,
      "kn": 355,
      "ned": 356,
      "oid": 357,
      "rp": 358,
      "sc": 359,
      "sage": 360,
      "sig": 361,
      "up": 362,
      "vho": 363,
      "void": 364,
      "wa": 365,
      "wit": 366,
      "ata": 367,
      "_conf": 368,
      "_contro": 369,
      "nfs_": 370,
      "exit_": 371,
      "idx": 372,
      "alue": 373,
      "mojo": 374,
      "((\"": 375,
      "Image": 376,
      "essage": 377,
      "unsig": 378,
      "USB_RE": 379,
      "_param": 380,
      "gdImage": 381,
      "olate": 382,
      "pp_error": 383,
      "handled": 384,
      "bitmask": 385,
      "st_poll": 386,
      "HeadlessWebContentsImpl": 387,
      "From": 388,
      "String": 389,
      "_services_": 390,
      "ctrl": 391,
      "known": 392,
      "vhost_poll": 393,
      "_control_": 394,
      "exit_status": 395,
      "mojo_services_": 396,
      "unsigned": 397,
      "\");": 398,
      "(&": 399,
      "();": 400,
      "))": 401,
      "0x": 402,
      "32": 403,
      ">=": 404,
      "AT": 405,
      "AD_": 406,
      "CH": 407,
      "Ct": 408,
      "FE": 409,
      "FS": 410,
      "Fi": 411,
      "IO": 412,
      "Id": 413,
      "IZE": 414,
      "LS": 415,
      "Lo": 416,
      "Message": 417,
      "MLS": 418,
      "NFS": 419,
      "OK": 420,
      "OU": 421,
      "Ptr": 422,
      "RMLS": 423,
      "St": 424,
      "Socket": 425,
      "Tab": 426,
      "TCH": 427,
      "UP": 428,
      "URE": 429,
      "],": 430,
      "_M": 431,
      "_f": 432,
      "_v": 433,
      "_len": 434,
      "ant": 435,
      "ain": 436,
      "ace": 437,
      "base": 438,
      "create": 439,
      "crash": 440,
      "case": 441,
      "ew": 442,
      "fl": 443,
      "fo": 444,
      "hat": 445,
      "ir": 446,
      "ial": 447,
      "mm": 448,
      "pr": 449,
      "pro": 450,
      "uld": 451,
      "};": 452,
      "reg": 453,
      "read": 454,
      "std": 455,
      "cont": 456,
      "init": 457,
      "url": 458,
      "int_": 459,
      "able": 460,
      "_size": 461,
      "argp": 462,
      "_CC": 463,
      "_CL": 464,
      "error_in": 465,
      "attr_": 466,
      "nfsd": 467,
      "DE_": 468,
      "_SIZE": 469,
      "ake": 470,
      "d_c": 471,
      "Report": 472,
      "isolate": 473,
      "const_name_len": 474,
      "MEM": 475,
      "TSRMLS": 476,
      "clientid": 477,
      "indow": 478,
      "rpc_": 479,
      "scd_c": 480,
      "wait": 481,
      "_confir": 482,
      "_params": 483,
      "Ctx": 484,
      "File": 485,
      "State": 486,
      "TabSocket": 487,
      "create_params": 488,
      "mmit": 489,
      "print_": 490,
      "error_info": 491,
      "TSRMLS_CC": 492,
      "_confirm": 493,
      "&&": 494,
      "(\"": 495,
      "+)": 496,
      "++)": 497,
      "02": 498,
      "2str": 499,
      "==": 500,
      "AL": 501,
      "AS": 502,
      "APL": 503,
      "AIL": 504,
      "BAD_": 505,
      "CE": 506,
      "CI": 507,
      "CK": 508,
      "CL": 509,
      "ES": 510,
      "E_": 511,
      "Er": 512,
      "EAR": 513,
      "ET_": 514,
      "ECK": 515,
      "FI": 516,
      "FU": 517,
      "HT": 518,
      "IME": 519,
      "ICE": 520,
      "IFI": 521,
      "M_": 522,
      "NC": 523,
      "NE": 524,
      "NO": 525,
      "New": 526,
      "OP": 527,
      "OR": 528,
      "Opt": 529,
      "PE": 530,
      "PH": 531,
      "PY": 532,
      "PP_": 533,
      "PEN": 534,
      "QU": 535,
      "Q_CL": 536,
      "ROR": 537,
      "TR": 538,
      "To": 539,
      "TP_": 540,
      "TRL": 541,
      "TIME": 542,
      "URL": 543,
      "VER": 544,
      "VICE": 545,
      "What": 546,
      "\\\"": 547,
      "];": 548,
      "_t": 549,
      "_w": 550,
      "_re": 551,
      "_opt": 552,
      "_entry": 553,
      "_mode": 554,
      "_get": 555,
      "_FE": 556,
      "ap": 557,
      "au": 558,
      "ade": 559,
      "bro": 560,
      "call": 561,
      "data": 562,
      "dState": 563,
      "ey": 564,
      "ect": 565,
      "fh": 566,
      "ftr": 567,
      "for": 568,
      "fhandle": 569,
      "fau": 570,
      "gus": 571,
      "iv": 572,
      "k2str": 573,
      "kWhat": 574,
      "key": 575,
      "lt": 576,
      "lon": 577,
      "nc": 578,
      "nu": 579,
      "nexe": 580,
      "of": 581,
      "ok2str": 582,
      "ptr": 583,
      "pip": 584,
      "q_": 585,
      "rame": 586,
      "sp": 587,
      "su": 588,
      "set": 589,
      "sho": 590,
      "swit": 591,
      "t_": 592,
      "tab": 593,
      "tok2str": 594,
      "um": 595,
      "value": 596,
      "wser": 597,
      "window": 598,
      "ync": 599,
      "ntex": 600,
      "reque": 601,
      "ers": 602,
      "leTo": 603,
      "conf": 604,
      "content": 605,
      "commit": 606,
      "inue": 607,
      "inFile": 608,
      "roc": 609,
      "s_value": 610,
      "defau": 611,
      "true": 612,
      "add_": 613,
      "ndctrl": 614,
      "_contex": 615,
      "ceiv": 616,
      "ush": 617,
      "REQU": 618,
      "constant": 619,
      "PRO": 620,
      "4_VER": 621,
      "ndo_v": 622,
      "ER_SIZE": 623,
      "_socket": 624,
      "_sndctrl": 625,
      "onMessage": 626,
      "opts_value": 627,
      "_CTRL": 628,
      "unique": 629,
      "unknown": 630,
      "DECO": 631,
      "DEVICE": 632,
      "ND_TCH": 633,
      "Webp": 634,
      "_SET_": 635,
      "llptr": 636,
      "USB_": 637,
      "USB_CTRL": 638,
      "_ptr": 639,
      "gin_f": 640,
      "queue": 641,
      "CreateFrom": 642,
      "Receiv": 643,
      "else": 644,
      "seq_": 645,
      "zend": 646,
      "ported": 647,
      "nfs4_get": 648,
      "nfs4_pro": 649,
      "back": 650,
      "bacp": 651,
      "bacconf": 652,
      "ions": 653,
      "ntrol": 654,
      "usb_control_": 655,
      "usb_sndctrl": 656,
      "())": 657,
      "ZEND_": 658,
      "_data": 659,
      "hash_entry": 660,
      "COPY": 661,
      "Unique": 662,
      "Unknown": 663,
      "begin_f": 664,
      "bool": 665,
      "bogus": 666,
      "enable": 667,
      "with": 668,
      "nfs_fattr": 669,
      "USB_RECI": 670,
      "USB_REQ_CL": 671,
      "gdImagePtr": 672,
      "gdImageCreateFrom": 673,
      "ATURE": 674,
      "IdleTo": 675,
      "Loade": 676,
      "NFS4_VER": 677,
      "OUT": 678,
      "ace_": 679,
      "flag": 680,
      "regs": 681,
      "ready": 682,
      "continue": 683,
      "initial": 684,
      "_size_": 685,
      "nfsd4_": 686,
      "akeup": 687,
      "clientid_confirm": 688,
      "print_unknown": 689,
      "02x": 690,
      "APLOG": 691,
      "BAD_REQU": 692,
      "EST": 693,
      "E_W": 694,
      "Error": 695,
      "EAR_FE": 696,
      "ECK2": 697,
      "FUNC": 698,
      "HTTP_": 699,
      "IFIER_SIZE": 700,
      "Option": 701,
      "PP_OK": 702,
      "TIMEOUT": 703,
      "_wakeup": 704,
      "_options": 705,
      "browser": 706,
      "long": 707,
      "nullptr": 708,
      "pipe": 709,
      "rame_control_": 710,
      "supp": 711,
      "should": 712,
      "switch": 713,
      "tab_socket": 714,
      "window_size_": 715,
      "default": 716,
      "add_hash_entry": 717,
      "_context_": 718,
      "ndo_vflag": 719,
      "onMessageReceiv": 720,
      "opts_values": 721,
      "unique_ptr": 722,
      "DECODE_": 723,
      "ND_TCHECK2": 724,
      "_SET_TIMEOUT": 725,
      "USB_CTRL_SET_TIMEOUT": 726,
      "nfs4_getattr_": 727,
      "bacconfopts_values": 728,
      "usb_control_msg": 729,
      "usb_sndctrlpipe": 730,
      "COPYMEM": 731,
      "begin_frame_control_": 732,
      "USB_RECIP_": 733,
      "USB_REQ_CLEAR_FE": 734,
      "gdImageCreateFromWebp": 735,
      "IdleToLoade": 736,
      "NFS4_VERIFIER_SIZE": 737,
      "print_unknown_data": 738,
      "BAD_REQUEST": 739,
      "HTTP_BAD_REQUEST": 740,
      "browser_context_": 741,
      "onMessageReceived": 742,
      "USB_REQ_CLEAR_FEATURE": 743,
      "IdleToLoadedState": 744,
      "!\\": 745,
      "\")": 746,
      "\":": 747,
      "\"[": 748,
      "\"),": 749,
      "%\"": 750,
      "')": 751,
      "(-": 752,
      "());": 753,
      ")));": 754,
      ")\",": 755,
      ")\"));": 756,
      "--": 757,
      ".\\": 758,
      ".\");": 759,
      "08": 760,
      "1G": 761,
      "1g": 762,
      "4_co": 763,
      "8String": 764,
      ";\"": 765,
      "<=": 766,
      "=%\"": 767,
      ">(": 768,
      "AD": 769,
      "AK": 770,
      "AP": 771,
      "AX": 772,
      "AY": 773,
      "Ad": 774,
      "ARE": 775,
      "ACo": 776,
      "AMessage": 777,
      "AM_": 778,
      "BG": 779,
      "BI": 780,
      "BU": 781,
      "Bad": 782,
      "Builder": 783,
      "Base": 784,
      "Bind": 785,
      "BAC": 786,
      "C4_": 787,
      "Client": 788,
      "Call": 789,
      "DO": 790,
      "Dead": 791,
      "ET": 792,
      "EX": 793,
      "EIN": 794,
      "ED_": 795,
      "EUP": 796,
      "EOP": 797,
      "EAD": 798,
      "FG": 799,
      "F_": 800,
      "Fl": 801,
      "FP_": 802,
      "For": 803,
      "FAC": 804,
      "FIL": 805,
      "FAIL": 806,
      "FPE": 807,
      "GM": 808,
      "GS": 809,
      "Gl": 810,
      "Got": 811,
      "GET": 812,
      "GFP_": 813,
      "HS": 814,
      "HW": 815,
      "HOU": 816,
      "HAP": 817,
      "HEAD": 818,
      "II": 819,
      "In": 820,
      "Is": 821,
      "Inf": 822,
      "KER": 823,
      "LD": 824,
      "L_": 825,
      "Loc": 826,
      "LOG": 827,
      "MO": 828,
      "Mo": 829,
      "Mag": 830,
      "Main": 831,
      "Make": 832,
      "N_": 833,
      "NIN": 834,
      "Name": 835,
      "NT_": 836,
      "Nor": 837,
      "NAC": 838,
      "Num": 839,
      "On": 840,
      "Op": 841,
      "ODE_": 842,
      "OMEM": 843,
      "Pi": 844,
      "Param": 845,
      "POP": 846,
      "Proc": 847,
      "QS": 848,
      "RAS": 849,
      "RROR": 850,
      "RAY": 851,
      "RF_": 852,
      "RN_": 853,
      "Sh": 854,
      "Ser": 855,
      "Set": 856,
      "SER": 857,
      "S_S": 858,
      "SUP": 859,
      "S1G": 860,
      "SHOU": 861,
      "TU": 862,
      "Th": 863,
      "TAR": 864,
      "TIO": 865,
      "TAIL": 866,
      "TE_W": 867,
      "Ut": 868,
      "Value": 869,
      "VAL": 870,
      "V8String": 871,
      "Wr": 872,
      "Window": 873,
      "XY": 874,
      "Y_M": 875,
      "]\"));": 876,
      "__": 877,
      "_r": 878,
      "_st": 879,
      "_ur": 880,
      "_ex": 881,
      "_ER": 882,
      "_ch": 883,
      "_dev": 884,
      "_char": 885,
      "_bit": 886,
      "_up": 887,
      "_mojo_services_": 888,
      "_url": 889,
      "_isolate": 890,
      "_of": 891,
      "_queue": 892,
      "_nfs4_pro": 893,
      "_begin_frame_control_": 894,
      "_HW": 895,
      "act": 896,
      "bpro": 897,
      "ck": 898,
      "c_p": 899,
      "du": 900,
      "dur": 901,
      "date": 902,
      "dis": 903,
      "down": 904,
      "dGl": 905,
      "em": 906,
      "ev": 907,
      "eed": 908,
      "e_wakeup": 909,
      "eck": 910,
      "f8": 911,
      "fx": 912,
      "fre": 913,
      "fal": 914,
      "find": 915,
      "gd_": 916,
      "gfx": 917,
      "how": 918,
      "ject": 919,
      "km": 920,
      "kNor": 921,
      "min": 922,
      "ment": 923,
      "mal": 924,
      "mpo": 925,
      "message": 926,
      "main": 927,
      "map": 928,
      "net": 929,
      "nac": 930,
      "non": 931,
      "new": 932,
      "o_isolate": 933,
      "ple": 934,
      "p_error": 935,
      "rv": 936,
      "r_n": 937,
      "so": 938,
      "ss_": 939,
      "sc_": 940,
      "sing": 941,
      "size": 942,
      "sFrom": 943,
      "sync": 944,
      "show": 945,
      "tup": 946,
      "tect": 947,
      "tdown": 948,
      "te_wakeup": 949,
      "unt": 950,
      "ure": 951,
      "und": 952,
      "u_char": 953,
      "ubpro": 954,
      "utdown": 955,
      "ve": 956,
      "vice": 957,
      "vers": 958,
      "wor": 959,
      "what": 960,
      "yph": 961,
      "||": 962,
      "rec": 963,
      "ref": 964,
      "reported": 965,
      "erAd": 966,
      "er_of": 967,
      "star": 968,
      "led": 969,
      "ation": 970,
      "code": 971,
      "control": 972,
      "inject": 973,
      "s_all": 974,
      "dec": 975,
      "detect": 976,
      "decode": 977,
      "trun": 978,
      "return_v": 979,
      "ited": 980,
      "itial": 981,
      "serr_n": 982,
      "adError": 983,
      "arse": 984,
      "nderAd": 985,
      "_const": 986,
      "_commit": 987,
      "ct_options": 988,
      "cture": 989,
      "strlen": 990,
      "nfserr_n": 991,
      "cedu": 992,
      "cess_": 993,
      "ntents_": 994,
      "exited": 995,
      "int32": 996,
      "into_isolate": 997,
      "eters": 998,
      "etclientid_confirm": 999,
      "already": 1000,
      "am_ch": 1001,
      "ld_": 1002,
      "D_DE": 1003,
      "READ_": 1004,
      "RETU": 1005,
      "PRId": 1006,
      "ed_": 1007,
      "mote_wakeup": 1008,
      "move": 1009,
      "(((\"": 1010,
      "INTER": 1011,
      "INTRF_": 1012,
      "Could": 1013,
      "Control": 1014,
      "ERROR": 1015,
      "_sync": 1016,
      "_s1g": 1017,
      "_subpro": 1018,
      "_setclientid_confirm": 1019,
      "Imple": 1020,
      "USPEN": 1021,
      "_CFG": 1022,
      "_CRAS": 1023,
      "owed_": 1024,
      "unc_": 1025,
      "headless_tab_socket": 1026,
      "web_contents_": 1027,
      "DES1G": 1028,
      "_SPE": 1029,
      "_STAR": 1030,
      "_SUSPEN": 1031,
      "serdes_macro": 1032,
      "serdes_init": 1033,
      "serdes_set": 1034,
      "USB_SPE": 1035,
      "P_FUNC": 1036,
      "_parse": 1037,
      "d_wor": 1038,
      "ocref": 1039,
      "otsupp": 1040,
      "this": 1041,
      "resp": 1042,
      "ressing": 1043,
      "ARK": 1044,
      "ARGS": 1045,
      "ARNIN": 1046,
      "ARRAY": 1047,
      "CreateTabSocket": 1048,
      "CreateParam": 1049,
      "CreateV8String": 1050,
      "Rect": 1051,
      "RenderAd": 1052,
      "isable": 1053,
      "php_error": 1054,
      "sect_options": 1055,
      "nfs4_label": 1056,
      "nfs4_bitmask": 1057,
      "nfs4_call": 1058,
      "NUM_": 1059,
      "T_32": 1060,
      "T_PRO": 1061,
      "T_FPE": 1062,
      "_REMO": 1063,
      "_RERROR": 1064,
      "_error_re": 1065,
      "c_get": 1066,
      "gdIO": 1067,
      "gdNew": 1068,
      "l_ready": 1069,
      "orvers": 1070,
      "place_": 1071,
      "usb_d": 1072,
      "usb_dev": 1073,
      "charact": 1074,
      "HeadlessTabSocket": 1075,
      "(!((": 1076,
      "()->": 1077,
      "TSUP": 1078,
      "_drv": 1079,
      "_docref": 1080,
      "ig_options": 1081,
      "izeWindow": 1082,
      "joSer": 1083,
      "st_rec": 1084,
      "it_queue": 1085,
      "alloc": 1086,
      "service_r": 1087,
      "phy_mode": 1088,
      "phy_get": 1089,
      "(*(": 1090,
      "ACT_32": 1091,
      "ENT": 1092,
      "ENOMEM": 1093,
      "ILENT": 1094,
      "OGE": 1095,
      "_init": 1096,
      "enURL": 1097,
      "enum": 1098,
      "ime": 1099,
      "rpc_p": 1100,
      "sc_confirm": 1101,
      "wait_queue": 1102,
      "_config_options": 1103,
      "nfs_server": 1104,
      "nfs_fh": 1105,
      "_parameters": 1106,
      "FromUt": 1107,
      "vhost_poll_wakeup": 1108,
      "vhost_poll_queue": 1109,
      "ATTR": 1110,
      "FETCH": 1111,
      "IO_HW": 1112,
      "LoadError": 1113,
      "NFSPRO": 1114,
      "_MAX": 1115,
      "_MARK": 1116,
      "_func_": 1117,
      "ant_ex": 1118,
      "ainer_of": 1119,
      "ace_func_": 1120,
      "crashed": 1121,
      "flush": 1122,
      "regmap": 1123,
      "container_of": 1124,
      "_CLAS": 1125,
      "attr_bitmask": 1126,
      "nfsd4_co": 1127,
      "ReportDead": 1128,
      "ReportLoadError": 1129,
      "rpc_argp": 1130,
      "rpc_message": 1131,
      "rpc_resp": 1132,
      "FileCtx": 1133,
      "print_bacp": 1134,
      "ALOGE": 1135,
      "CLARE": 1136,
      "CLNT_": 1137,
      "NEL": 1138,
      "NOT": 1139,
      "NOTSUP": 1140,
      "NewFromUt": 1141,
      "PHY_M": 1142,
      "PHP_FUNC": 1143,
      "TRACT_32": 1144,
      "\\\".\\": 1145,
      "_remote_wakeup": 1146,
      "_get_const": 1147,
      "apUnique": 1148,
      "callback": 1149,
      "ftrace_": 1150,
      "ftrace_func_": 1151,
      "kWhatFl": 1152,
      "kWhatSh": 1153,
      "nexe_error_re": 1154,
      "speed": 1155,
      "setclientid_confirm": 1156,
      "request": 1157,
      "request_rec": 1158,
      "DEVICE_REMO": 1159,
      "USB_INTRF_": 1160,
      "USB_DEVICE_REMO": 1161,
      "seq_res": 1162,
      "seq_args": 1163,
      "zend_parse": 1164,
      "zend_get_const": 1165,
      "nfs4_procedu": 1166,
      "ZEND_NUM_": 1167,
      "ZEND_FETCH": 1168,
      "enabled_": 1169,
      "enable_begin_frame_control_": 1170,
      "nfs_fattr_init": 1171,
      "initial_size": 1172,
      "initial_ur": 1173,
      "nfsd4_decode": 1174,
      "nfsd4_setclientid_confirm": 1175,
      "APLOG_ER": 1176,
      "APLOG_MARK": 1177,
      "E_WARNIN": 1178,
      "ErrorInf": 1179,
      "FUNC_SUSPEN": 1180,
      "suppressing": 1181,
      "tab_sockets_all": 1182,
      "DECODE_HEAD": 1183,
      "DECODE_TAIL": 1184,
      "nfs4_getattr_arg": 1185,
      "nfs4_getattr_res": 1186,
      "begin_frame_control_enabled_": 1187,
      "USB_RECIP_DEVICE": 1188,
      "USB_RECIP_INTER": 1189,
      "gdImageCreateFromWebpCtx": 1190,
      "\")\\": 1191,
      "\"[|": 1192,
      "08x": 1193,
      "AKEUP": 1194,
      "ACodec": 1195,
      "AM_LOG": 1196,
      "BGD_DE": 1197,
      "BITS": 1198,
      "BUF": 1199,
      "BadImple": 1200,
      "BaseState": 1201,
      "BACPOP": 1202,
      "C4_CLNT_": 1203,
      "ClientPtr": 1204,
      "CallOn": 1205,
      "DONE": 1206,
      "EXTRACT_32": 1207,
      "EINVAL": 1208,
      "ED_SUP": 1209,
      "EOPNOTSUP": 1210,
      "ForContents": 1211,
      "FACE": 1212,
      "FILE": 1213,
      "FAILURE": 1214,
      "GMII": 1215,
      "GETATTR": 1216,
      "GFP_KER": 1217,
      "HSIO_HW": 1218,
      "HAPPEN": 1219,
      "Initial": 1220,
      "Isolate": 1221,
      "L_PRId": 1222,
      "Local": 1223,
      "MojoSer": 1224,
      "Magic": 1225,
      "MainTh": 1226,
      "MakeUnique": 1227,
      "Name_": 1228,
      "NACL_PRId": 1229,
      "OpenURL": 1230,
      "ODE_QS": 1231,
      "Picture": 1232,
      "ProcRenderAd": 1233,
      "RN_NULL": 1234,
      "SetReport": 1235,
      "SERDES1G": 1236,
      "S_SILENT": 1237,
      "SHOULD": 1238,
      "TION": 1239,
      "TE_WAKEUP": 1240,
      "WrapUnique": 1241,
      "XY_CRAS": 1242,
      "__add_hash_entry": 1243,
      "_state": 1244,
      "_bits": 1245,
      "_update": 1246,
      "_mojo_services_into_isolate": 1247,
      "_nfs4_proc_get": 1248,
      "during": 1249,
      "dissect_options": 1250,
      "dGlyph": 1251,
      "emplace_": 1252,
      "event": 1253,
      "eck_url": 1254,
      "free": 1255,
      "false": 1256,
      "gd_free": 1257,
      "kmalloc": 1258,
      "kNormal": 1259,
      "minorvers": 1260,
      "mentation": 1261,
      "mpound": 1262,
      "main_subpro": 1263,
      "netdissect_options": 1264,
      "nacl_ready": 1265,
      "sc_clientid": 1266,
      "sizeof": 1267,
      "sFromPicture": 1268,
      "show_commit": 1269,
      "untime": 1270,
      "viceForContents": 1271,
      "startup": 1272,
      "controlled": 1273,
      "inject_mojo_services_into_isolate": 1274,
      "detected": 1275,
      "trunc": 1276,
      "return_value": 1277,
      "nfserr_notsupp": 1278,
      "int32_t": 1279,
      "am_check_url": 1280,
      "READ_BUF": 1281,
      "RETURN_NULL": 1282,
      "Couldn": 1283,
      "ERROR_STAR": 1284,
      "headless_tab_socket_": 1285,
      "serdes_init_s1g": 1286,
      "serdes_set_mode": 1287,
      "USB_SPEED_SUP": 1288,
      "d_world_": 1289,
      "ARRAY_SIZE": 1290,
      "CreateTabSocketMojoSer": 1291,
      "CreateParams": 1292,
      "isable_remote_wakeup": 1293,
      "php_error_docref": 1294,
      "nfs4_call_sync": 1295,
      "T_PROXY_CRAS": 1296,
      "T_FPEER": 1297,
      "gdIOCtx": 1298,
      "gdNewFileCtx": 1299,
      "usb_disable_remote_wakeup": 1300,
      "usb_device": 1301,
      "character": 1302,
      "HeadlessTabSocketImpl": 1303,
      "_drvdata": 1304,
      "service_runtime": 1305,
      "phy_get_drvdata": 1306,
      "rpc_proc": 1307,
      "wait_queue_t": 1308,
      "NFSPROC4_CLNT_": 1309,
      "regmap_update": 1310,
      "_CLASS_SILENT": 1311,
      "nfsd4_compound": 1312,
      "ReportDeadNexe": 1313,
      "print_bacp_config_options": 1314,
      "NewFromUtf8": 1315,
      "PHY_MODE_QS": 1316,
      "PHP_FUNCTION": 1317,
      "ftrace_hash": 1318,
      "ftrace_func_entry": 1319,
      "kWhatFlush": 1320,
      "kWhatShutdown": 1321,
      "nexe_error_reported": 1322,
      "USB_INTRF_FUNC_SUSPEN": 1323,
      "USB_DEVICE_REMOTE_WAKEUP": 1324,
      "zend_parse_parameters": 1325,
      "zend_get_constant_ex": 1326,
      "nfs4_procedures": 1327,
      "ZEND_NUM_ARGS": 1328,
      "ZEND_FETCH_CLASS_SILENT": 1329,
      "initial_url_": 1330,
      "nfsd4_decode_setclientid_confirm": 1331,
      "APLOG_ERR": 1332,
      "E_WARNING": 1333,
      "ErrorInfo": 1334,
      "tab_sockets_allowed_": 1335,
      "USB_RECIP_INTERFACE": 1336,
      "AM_LOG_RERROR": 1337,
      "BGD_DECLARE": 1338,
      "BadImplementation": 1339,
      "BACPOPT_FPEER": 1340,
      "CallOnMainTh": 1341,
      "EXTRACT_32BITS": 1342,
      "EOPNOTSUPP": 1343,
      "GFP_KERNEL": 1344,
      "HSIO_HW_CFG": 1345,
      "InitializeWindow": 1346,
      "NACL_PRId32": 1347,
      "ProcRenderAddGlyph": 1348,
      "SERDES1G_MAX": 1349,
      "_nfs4_proc_getattr": 1350,
      "emplace_back": 1351,
      "kNormalString": 1352,
      "minorversion": 1353,
      "main_subprocess_": 1354,
      "nacl_ready_state": 1355,
      "inject_mojo_services_into_isolated_world_": 1356,
      "ERROR_START_PROXY_CRAS": 1357,
      "USB_SPEED_SUPER": 1358,
      "CreateTabSocketMojoServiceForContents": 1359,
      "NFSPROC4_CLNT_GETATTR": 1360,
      "regmap_update_bits": 1361,
      "nfsd4_compoundargs": 1362,
      "PHY_MODE_QSGMII": 1363,
      "USB_INTRF_FUNC_SUSPEND": 1364,
      "CallOnMainThread": 1365,
      "ProcRenderAddGlyphsFromPicture": 1366,
      "ERROR_START_PROXY_CRASH": 1367
    },
    "merges": [
      [
        "n",
        "t"
      ],
      [
        "r",
        "e"
      ],
      [
        "e",
        "r"
      ],
      [
        "s",
        "t"
      ],
      [
        "l",
        "e"
      ],
      [
        ")",
        ";"
      ],
      [
        "a",
        "t"
      ],
      [
        "c",
        "o"
      ],
      [
        "i",
        "n"
      ],
      [
        "-",
        ">"
      ],
      [
        "e",
        "nt"
      ],
      [
        "r",
        "o"
      ],
      [
        "u",
        "r"
      ],
      [
        "re",
        "t"
      ],
      [
        "s",
        "_"
      ],
      [
        "d",
        "e"
      ],
      [
        ":",
        ":"
      ],
      [
        "t",
        "r"
      ],
      [
        "ur",
        "n"
      ],
      [
        "ret",
        "urn"
      ],
      [
        "a",
        "s"
      ],
      [
        "i",
        "t"
      ],
      [
        "s",
        "er"
      ],
      [
        "a",
        "d"
      ],
      [
        "a",
        "r"
      ],
      [
        "i",
        "f"
      ],
      [
        "n",
        "d"
      ],
      [
        "_",
        "co"
      ],
      [
        "c",
        "t"
      ],
      [
        "st",
        "r"
      ],
      [
        "n",
        "f"
      ],
      [
        "le",
        "n"
      ],
      [
        "c",
        "e"
      ],
      [
        "nt",
        "ent"
      ],
      [
        "I",
        "N"
      ],
      [
        "e",
        "b"
      ],
      [
        "at",
        "e"
      ],
      [
        "e",
        "x"
      ],
      [
        "i",
        "nt"
      ],
      [
        "u",
        "e"
      ],
      [
        "e",
        "t"
      ],
      [
        "e",
        "ad"
      ],
      [
        "i",
        "d"
      ],
      [
        "u",
        "ct"
      ],
      [
        "str",
        "uct"
      ],
      [
        "ntent",
        "s"
      ],
      [
        "a",
        "l"
      ],
      [
        "a",
        "m"
      ],
      [
        "le",
        "s"
      ],
      [
        "ead",
        "les"
      ],
      [
        ")",
        ");"
      ],
      [
        "a",
        "c"
      ],
      [
        "l",
        "d"
      ],
      [
        "n",
        "st"
      ],
      [
        "p",
        "o"
      ],
      [
        "u",
        "s"
      ],
      [
        "D",
        "_"
      ],
      [
        "R",
        "E"
      ],
      [
        "co",
        "nst"
      ],
      [
        "as",
        "h"
      ],
      [
        "P",
        "R"
      ],
      [
        "a",
        "b"
      ],
      [
        "e",
        "d"
      ],
      [
        "m",
        "o"
      ],
      [
        "p",
        "t"
      ],
      [
        "ser",
        "v"
      ],
      [
        "(",
        "("
      ],
      [
        "4",
        "_"
      ],
      [
        "ro",
        "r"
      ],
      [
        "nd",
        "o"
      ],
      [
        "IN",
        "T"
      ],
      [
        "C",
        "o"
      ],
      [
        "E",
        "R"
      ],
      [
        "_",
        "s"
      ],
      [
        "a",
        "g"
      ],
      [
        "i",
        "ld"
      ],
      [
        "o",
        "n"
      ],
      [
        "o",
        "pt"
      ],
      [
        "u",
        "ild"
      ],
      [
        "st",
        "at"
      ],
      [
        "ar",
        "g"
      ],
      [
        "uild",
        "er"
      ],
      [
        "\"",
        ","
      ],
      [
        ")",
        ","
      ],
      [
        "I",
        "m"
      ],
      [
        "U",
        "S"
      ],
      [
        "_",
        "C"
      ],
      [
        "b",
        "uilder"
      ],
      [
        "e",
        "s"
      ],
      [
        "h",
        "eadles"
      ],
      [
        "o",
        "w"
      ],
      [
        "u",
        "n"
      ],
      [
        "w",
        "eb"
      ],
      [
        "re",
        "ate"
      ],
      [
        "er",
        "ror"
      ],
      [
        "at",
        "tr"
      ],
      [
        "nf",
        "s"
      ],
      [
        "ex",
        "e"
      ],
      [
        "am",
        "e"
      ],
      [
        "PR",
        "INT"
      ],
      [
        "headles",
        "s_"
      ],
      [
        "web",
        "_co"
      ],
      [
        "D",
        "E"
      ],
      [
        "N",
        "D_"
      ],
      [
        "W",
        "eb"
      ],
      [
        "_",
        "S"
      ],
      [
        "c",
        "h"
      ],
      [
        "l",
        "l"
      ],
      [
        "r",
        "y"
      ],
      [
        "r",
        "ash"
      ],
      [
        "ent",
        "ry"
      ],
      [
        "de",
        "s_"
      ],
      [
        "ser",
        "des_"
      ],
      [
        "US",
        "B"
      ],
      [
        "headless_",
        "web_co"
      ],
      [
        "headless_web_co",
        "ntents"
      ],
      [
        "N",
        "exe"
      ],
      [
        "P",
        "_"
      ],
      [
        "_",
        "n"
      ],
      [
        "_",
        "p"
      ],
      [
        "a",
        "k"
      ],
      [
        "d",
        "_"
      ],
      [
        "g",
        "in"
      ],
      [
        "m",
        "ac"
      ],
      [
        "o",
        "c"
      ],
      [
        "o",
        "t"
      ],
      [
        "q",
        "ue"
      ],
      [
        "t",
        "h"
      ],
      [
        "re",
        "s"
      ],
      [
        "serv",
        "er"
      ],
      [
        "Co",
        "ntents"
      ],
      [
        "ag",
        "e"
      ],
      [
        "mac",
        "ro"
      ],
      [
        "!",
        "="
      ],
      [
        "A",
        "R"
      ],
      [
        "C",
        "reate"
      ],
      [
        "P",
        "L"
      ],
      [
        "R",
        "e"
      ],
      [
        "e",
        "l"
      ],
      [
        "g",
        "th"
      ],
      [
        "i",
        "c"
      ],
      [
        "i",
        "s"
      ],
      [
        "i",
        "ce"
      ],
      [
        "m",
        "s"
      ],
      [
        "m",
        "u"
      ],
      [
        "p",
        "h"
      ],
      [
        "r",
        "t"
      ],
      [
        "s",
        "e"
      ],
      [
        "z",
        "e"
      ],
      [
        "de",
        "v"
      ],
      [
        "as",
        "e"
      ],
      [
        "len",
        "gth"
      ],
      [
        "po",
        "ll"
      ],
      [
        "po",
        "rt"
      ],
      [
        "const",
        "_n"
      ],
      [
        "mo",
        "de"
      ],
      [
        "nfs",
        "4_"
      ],
      [
        "Web",
        "Contents"
      ],
      [
        "ms",
        "g"
      ],
      [
        "mu",
        "x"
      ],
      [
        "const_n",
        "ame"
      ],
      [
        "C",
        "rash"
      ],
      [
        "D",
        "id"
      ],
      [
        "H",
        "eadles"
      ],
      [
        "N",
        "U"
      ],
      [
        "P",
        "l"
      ],
      [
        "T",
        "_"
      ],
      [
        "_",
        "RE"
      ],
      [
        "_",
        "error"
      ],
      [
        "_",
        "serdes_"
      ],
      [
        "a",
        "nd"
      ],
      [
        "b",
        "ac"
      ],
      [
        "c",
        "_"
      ],
      [
        "f",
        "attr"
      ],
      [
        "g",
        "d"
      ],
      [
        "g",
        "et"
      ],
      [
        "h",
        "o"
      ],
      [
        "h",
        "and"
      ],
      [
        "i",
        "ent"
      ],
      [
        "i",
        "on"
      ],
      [
        "l",
        "_"
      ],
      [
        "l",
        "ot"
      ],
      [
        "l",
        "ient"
      ],
      [
        "m",
        "as"
      ],
      [
        "o",
        "l"
      ],
      [
        "o",
        "r"
      ],
      [
        "o",
        "ce"
      ],
      [
        "p",
        "l"
      ],
      [
        "p",
        "p"
      ],
      [
        "u",
        "gin"
      ],
      [
        "u",
        "dev"
      ],
      [
        "nt",
        "ro"
      ],
      [
        "in",
        "g"
      ],
      [
        "us",
        "b"
      ],
      [
        "stat",
        "ic"
      ],
      [
        "arg",
        "s"
      ],
      [
        "ch",
        "ar"
      ],
      [
        "Nexe",
        "Did"
      ],
      [
        "mux",
        "es"
      ],
      [
        "Headles",
        "s"
      ],
      [
        "Pl",
        "ugin"
      ],
      [
        "_serdes_",
        "muxes"
      ],
      [
        "hand",
        "le"
      ],
      [
        "lot",
        "_serdes_muxes"
      ],
      [
        "mas",
        "k"
      ],
      [
        "oce",
        "lot_serdes_muxes"
      ],
      [
        "NexeDid",
        "Crash"
      ],
      [
        "\"",
        "));"
      ],
      [
        "(",
        "!"
      ],
      [
        "(",
        ")"
      ],
      [
        "G",
        "IN"
      ],
      [
        "L",
        "L"
      ],
      [
        "M",
        "E"
      ],
      [
        "T",
        "S"
      ],
      [
        "U",
        "GIN"
      ],
      [
        "Z",
        "E"
      ],
      [
        "]",
        "."
      ],
      [
        "_",
        "d"
      ],
      [
        "_",
        "PRINT"
      ],
      [
        "b",
        "re"
      ],
      [
        "b",
        "it"
      ],
      [
        "c",
        "lient"
      ],
      [
        "h",
        "ash"
      ],
      [
        "i",
        "g"
      ],
      [
        "i",
        "p"
      ],
      [
        "i",
        "ze"
      ],
      [
        "j",
        "o"
      ],
      [
        "k",
        "et"
      ],
      [
        "l",
        "ab"
      ],
      [
        "v",
        "8"
      ],
      [
        "st",
        "_"
      ],
      [
        "in",
        "d"
      ],
      [
        "it",
        "_"
      ],
      [
        "ar",
        "am"
      ],
      [
        "al",
        "l"
      ],
      [
        "serv",
        "ice"
      ],
      [
        "stat",
        "us"
      ],
      [
        "Im",
        "pl"
      ],
      [
        "ow",
        "n"
      ],
      [
        "ND_",
        "PRINT"
      ],
      [
        "oc",
        "ket"
      ],
      [
        "PL",
        "UGIN"
      ],
      [
        "ph",
        "y"
      ],
      [
        "NU",
        "LL"
      ],
      [
        "Headless",
        "WebContents"
      ],
      [
        "_PRINT",
        "F"
      ],
      [
        "bre",
        "ak"
      ],
      [
        "lab",
        "el"
      ],
      [
        "PLUGIN",
        "_PRINTF"
      ],
      [
        "\"",
        "\\"
      ],
      [
        "(",
        "*"
      ],
      [
        "A",
        "C"
      ],
      [
        "C",
        "O"
      ],
      [
        "E",
        "N"
      ],
      [
        "F",
        "ro"
      ],
      [
        "I",
        "L"
      ],
      [
        "O",
        "G"
      ],
      [
        "R",
        "L"
      ],
      [
        "S",
        "tr"
      ],
      [
        "U",
        "n"
      ],
      [
        "_",
        "in"
      ],
      [
        "_",
        "service"
      ],
      [
        "b",
        "e"
      ],
      [
        "b",
        "o"
      ],
      [
        "c",
        "tr"
      ],
      [
        "e",
        "n"
      ],
      [
        "i",
        "m"
      ],
      [
        "i",
        "que"
      ],
      [
        "k",
        "n"
      ],
      [
        "n",
        "ed"
      ],
      [
        "o",
        "id"
      ],
      [
        "r",
        "p"
      ],
      [
        "s",
        "c"
      ],
      [
        "s",
        "age"
      ],
      [
        "s",
        "ig"
      ],
      [
        "u",
        "p"
      ],
      [
        "v",
        "ho"
      ],
      [
        "v",
        "oid"
      ],
      [
        "w",
        "a"
      ],
      [
        "w",
        "it"
      ],
      [
        "at",
        "a"
      ],
      [
        "_co",
        "nf"
      ],
      [
        "_co",
        "ntro"
      ],
      [
        "nf",
        "s_"
      ],
      [
        "ex",
        "it_"
      ],
      [
        "id",
        "x"
      ],
      [
        "al",
        "ue"
      ],
      [
        "mo",
        "jo"
      ],
      [
        "((",
        "\""
      ],
      [
        "Im",
        "age"
      ],
      [
        "es",
        "sage"
      ],
      [
        "un",
        "sig"
      ],
      [
        "USB",
        "_RE"
      ],
      [
        "_p",
        "aram"
      ],
      [
        "gd",
        "Image"
      ],
      [
        "ol",
        "ate"
      ],
      [
        "pp",
        "_error"
      ],
      [
        "handle",
        "d"
      ],
      [
        "bit",
        "mask"
      ],
      [
        "st_",
        "poll"
      ],
      [
        "HeadlessWebContents",
        "Impl"
      ],
      [
        "Fro",
        "m"
      ],
      [
        "Str",
        "ing"
      ],
      [
        "_service",
        "s_"
      ],
      [
        "ctr",
        "l"
      ],
      [
        "kn",
        "own"
      ],
      [
        "vho",
        "st_poll"
      ],
      [
        "_contro",
        "l_"
      ],
      [
        "exit_",
        "status"
      ],
      [
        "mojo",
        "_services_"
      ],
      [
        "unsig",
        "ned"
      ],
      [
        "\"",
        ");"
      ],
      [
        "(",
        "&"
      ],
      [
        "(",
        ");"
      ],
      [
        ")",
        ")"
      ],
      [
        "0",
        "x"
      ],
      [
        "3",
        "2"
      ],
      [
        ">",
        "="
      ],
      [
        "A",
        "T"
      ],
      [
        "A",
        "D_"
      ],
      [
        "C",
        "H"
      ],
      [
        "C",
        "t"
      ],
      [
        "F",
        "E"
      ],
      [
        "F",
        "S"
      ],
      [
        "F",
        "i"
      ],
      [
        "I",
        "O"
      ],
      [
        "I",
        "d"
      ],
      [
        "I",
        "ZE"
      ],
      [
        "L",
        "S"
      ],
      [
        "L",
        "o"
      ],
      [
        "M",
        "essage"
      ],
      [
        "M",
        "LS"
      ],
      [
        "N",
        "FS"
      ],
      [
        "O",
        "K"
      ],
      [
        "O",
        "U"
      ],
      [
        "P",
        "tr"
      ],
      [
        "R",
        "MLS"
      ],
      [
        "S",
        "t"
      ],
      [
        "S",
        "ocket"
      ],
      [
        "T",
        "ab"
      ],
      [
        "T",
        "CH"
      ],
      [
        "U",
        "P"
      ],
      [
        "U",
        "RE"
      ],
      [
        "]",
        ","
      ],
      [
        "_",
        "M"
      ],
      [
        "_",
        "f"
      ],
      [
        "_",
        "v"
      ],
      [
        "_",
        "len"
      ],
      [
        "a",
        "nt"
      ],
      [
        "a",
        "in"
      ],
      [
        "a",
        "ce"
      ],
      [
        "b",
        "ase"
      ],
      [
        "c",
        "reate"
      ],
      [
        "c",
        "rash"
      ],
      [
        "c",
        "ase"
      ],
      [
        "e",
        "w"
      ],
      [
        "f",
        "l"
      ],
      [
        "f",
        "o"
      ],
      [
        "h",
        "at"
      ],
      [
        "i",
        "r"
      ],
      [
        "i",
        "al"
      ],
      [
        "m",
        "m"
      ],
      [
        "p",
        "r"
      ],
      [
        "p",
        "ro"
      ],
      [
        "u",
        "ld"
      ],
      [
        "}",
        ";"
      ],
      [
        "re",
        "g"
      ],
      [
        "re",
        "ad"
      ],
      [
        "st",
        "d"
      ],
      [
        "co",
        "nt"
      ],
      [
        "in",
        "it"
      ],
      [
        "ur",
        "l"
      ],
      [
        "int",
        "_"
      ],
      [
        "ab",
        "le"
      ],
      [
        "_s",
        "ize"
      ],
      [
        "arg",
        "p"
      ],
      [
        "_C",
        "C"
      ],
      [
        "_C",
        "L"
      ],
      [
        "error",
        "_in"
      ],
      [
        "attr",
        "_"
      ],
      [
        "nfs",
        "d"
      ],
      [
        "DE",
        "_"
      ],
      [
        "_S",
        "IZE"
      ],
      [
        "ak",
        "e"
      ],
      [
        "d_",
        "c"
      ],
      [
        "Re",
        "port"
      ],
      [
        "is",
        "olate"
      ],
      [
        "const_name",
        "_len"
      ],
      [
        "ME",
        "M"
      ],
      [
        "TS",
        "RMLS"
      ],
      [
        "client",
        "id"
      ],
      [
        "ind",
        "ow"
      ],
      [
        "rp",
        "c_"
      ],
      [
        "sc",
        "d_c"
      ],
      [
        "wa",
        "it"
      ],
      [
        "_conf",
        "ir"
      ],
      [
        "_param",
        "s"
      ],
      [
        "Ct",
        "x"
      ],
      [
        "Fi",
        "le"
      ],
      [
        "St",
        "ate"
      ],
      [
        "Tab",
        "Socket"
      ],
      [
        "create",
        "_params"
      ],
      [
        "mm",
        "it"
      ],
      [
        "pr",
        "int_"
      ],
      [
        "error_in",
        "fo"
      ],
      [
        "TSRMLS",
        "_CC"
      ],
      [
        "_confir",
        "m"
      ],
      [
        "&",
        "&"
      ],
      [
        "(",
        "\""
      ],
      [
        "+",
        ")"
      ],
      [
        "+",
        "+)"
      ],
      [
        "0",
        "2"
      ],
      [
        "2",
        "str"
      ],
      [
        "=",
        "="
      ],
      [
        "A",
        "L"
      ],
      [
        "A",
        "S"
      ],
      [
        "A",
        "PL"
      ],
      [
        "A",
        "IL"
      ],
      [
        "B",
        "AD_"
      ],
      [
        "C",
        "E"
      ],
      [
        "C",
        "I"
      ],
      [
        "C",
        "K"
      ],
      [
        "C",
        "L"
      ],
      [
        "E",
        "S"
      ],
      [
        "E",
        "_"
      ],
      [
        "E",
        "r"
      ],
      [
        "E",
        "AR"
      ],
      [
        "E",
        "T_"
      ],
      [
        "E",
        "CK"
      ],
      [
        "F",
        "I"
      ],
      [
        "F",
        "U"
      ],
      [
        "H",
        "T"
      ],
      [
        "I",
        "ME"
      ],
      [
        "I",
        "CE"
      ],
      [
        "I",
        "FI"
      ],
      [
        "M",
        "_"
      ],
      [
        "N",
        "C"
      ],
      [
        "N",
        "E"
      ],
      [
        "N",
        "O"
      ],
      [
        "N",
        "ew"
      ],
      [
        "O",
        "P"
      ],
      [
        "O",
        "R"
      ],
      [
        "O",
        "pt"
      ],
      [
        "P",
        "E"
      ],
      [
        "P",
        "H"
      ],
      [
        "P",
        "Y"
      ],
      [
        "P",
        "P_"
      ],
      [
        "P",
        "EN"
      ],
      [
        "Q",
        "U"
      ],
      [
        "Q",
        "_CL"
      ],
      [
        "R",
        "OR"
      ],
      [
        "T",
        "R"
      ],
      [
        "T",
        "o"
      ],
      [
        "T",
        "P_"
      ],
      [
        "T",
        "RL"
      ],
      [
        "T",
        "IME"
      ],
      [
        "U",
        "RL"
      ],
      [
        "V",
        "ER"
      ],
      [
        "V",
        "ICE"
      ],
      [
        "W",
        "hat"
      ],
      [
        "\\",
        "\""
      ],
      [
        "]",
        ";"
      ],
      [
        "_",
        "t"
      ],
      [
        "_",
        "w"
      ],
      [
        "_",
        "re"
      ],
      [
        "_",
        "opt"
      ],
      [
        "_",
        "entry"
      ],
      [
        "_",
        "mode"
      ],
      [
        "_",
        "get"
      ],
      [
        "_",
        "FE"
      ],
      [
        "a",
        "p"
      ],
      [
        "a",
        "u"
      ],
      [
        "a",
        "de"
      ],
      [
        "b",
        "ro"
      ],
      [
        "c",
        "all"
      ],
      [
        "d",
        "ata"
      ],
      [
        "d",
        "State"
      ],
      [
        "e",
        "y"
      ],
      [
        "e",
        "ct"
      ],
      [
        "f",
        "h"
      ],
      [
        "f",
        "tr"
      ],
      [
        "f",
        "or"
      ],
      [
        "f",
        "handle"
      ],
      [
        "f",
        "au"
      ],
      [
        "g",
        "us"
      ],
      [
        "i",
        "v"
      ],
      [
        "k",
        "2str"
      ],
      [
        "k",
        "What"
      ],
      [
        "k",
        "ey"
      ],
      [
        "l",
        "t"
      ],
      [
        "l",
        "on"
      ],
      [
        "n",
        "c"
      ],
      [
        "n",
        "u"
      ],
      [
        "n",
        "exe"
      ],
      [
        "o",
        "f"
      ],
      [
        "o",
        "k2str"
      ],
      [
        "p",
        "tr"
      ],
      [
        "p",
        "ip"
      ],
      [
        "q",
        "_"
      ],
      [
        "r",
        "ame"
      ],
      [
        "s",
        "p"
      ],
      [
        "s",
        "u"
      ],
      [
        "s",
        "et"
      ],
      [
        "s",
        "ho"
      ],
      [
        "s",
        "wit"
      ],
      [
        "t",
        "_"
      ],
      [
        "t",
        "ab"
      ],
      [
        "t",
        "ok2str"
      ],
      [
        "u",
        "m"
      ],
      [
        "v",
        "alue"
      ],
      [
        "w",
        "ser"
      ],
      [
        "w",
        "indow"
      ],
      [
        "y",
        "nc"
      ],
      [
        "nt",
        "ex"
      ],
      [
        "re",
        "que"
      ],
      [
        "er",
        "s"
      ],
      [
        "le",
        "To"
      ],
      [
        "co",
        "nf"
      ],
      [
        "co",
        "ntent"
      ],
      [
        "co",
        "mmit"
      ],
      [
        "in",
        "ue"
      ],
      [
        "in",
        "File"
      ],
      [
        "ro",
        "c"
      ],
      [
        "s_",
        "value"
      ],
      [
        "de",
        "fau"
      ],
      [
        "tr",
        "ue"
      ],
      [
        "ad",
        "d_"
      ],
      [
        "nd",
        "ctrl"
      ],
      [
        "_co",
        "ntex"
      ],
      [
        "ce",
        "iv"
      ],
      [
        "us",
        "h"
      ],
      [
        "RE",
        "QU"
      ],
      [
        "const",
        "ant"
      ],
      [
        "PR",
        "O"
      ],
      [
        "4_",
        "VER"
      ],
      [
        "ndo",
        "_v"
      ],
      [
        "ER",
        "_SIZE"
      ],
      [
        "_s",
        "ocket"
      ],
      [
        "_s",
        "ndctrl"
      ],
      [
        "on",
        "Message"
      ],
      [
        "opt",
        "s_value"
      ],
      [
        "_C",
        "TRL"
      ],
      [
        "un",
        "ique"
      ],
      [
        "un",
        "known"
      ],
      [
        "DE",
        "CO"
      ],
      [
        "DE",
        "VICE"
      ],
      [
        "ND_",
        "TCH"
      ],
      [
        "Web",
        "p"
      ],
      [
        "_S",
        "ET_"
      ],
      [
        "ll",
        "ptr"
      ],
      [
        "USB",
        "_"
      ],
      [
        "USB",
        "_CTRL"
      ],
      [
        "_p",
        "tr"
      ],
      [
        "gin",
        "_f"
      ],
      [
        "que",
        "ue"
      ],
      [
        "Create",
        "From"
      ],
      [
        "Re",
        "ceiv"
      ],
      [
        "el",
        "se"
      ],
      [
        "se",
        "q_"
      ],
      [
        "ze",
        "nd"
      ],
      [
        "port",
        "ed"
      ],
      [
        "nfs4_",
        "get"
      ],
      [
        "nfs4_",
        "pro"
      ],
      [
        "bac",
        "k"
      ],
      [
        "bac",
        "p"
      ],
      [
        "bac",
        "conf"
      ],
      [
        "ion",
        "s"
      ],
      [
        "ntro",
        "l"
      ],
      [
        "usb",
        "_control_"
      ],
      [
        "usb",
        "_sndctrl"
      ],
      [
        "()",
        ")"
      ],
      [
        "ZE",
        "ND_"
      ],
      [
        "_d",
        "ata"
      ],
      [
        "hash",
        "_entry"
      ],
      [
        "CO",
        "PY"
      ],
      [
        "Un",
        "ique"
      ],
      [
        "Un",
        "known"
      ],
      [
        "be",
        "gin_f"
      ],
      [
        "bo",
        "ol"
      ],
      [
        "bo",
        "gus"
      ],
      [
        "en",
        "able"
      ],
      [
        "wit",
        "h"
      ],
      [
        "nfs_",
        "fattr"
      ],
      [
        "USB_RE",
        "CI"
      ],
      [
        "USB_RE",
        "Q_CL"
      ],
      [
        "gdImage",
        "Ptr"
      ],
      [
        "gdImage",
        "CreateFrom"
      ],
      [
        "AT",
        "URE"
      ],
      [
        "Id",
        "leTo"
      ],
      [
        "Lo",
        "ade"
      ],
      [
        "NFS",
        "4_VER"
      ],
      [
        "OU",
        "T"
      ],
      [
        "ace",
        "_"
      ],
      [
        "fl",
        "ag"
      ],
      [
        "reg",
        "s"
      ],
      [
        "read",
        "y"
      ],
      [
        "cont",
        "inue"
      ],
      [
        "init",
        "ial"
      ],
      [
        "_size",
        "_"
      ],
      [
        "nfsd",
        "4_"
      ],
      [
        "ake",
        "up"
      ],
      [
        "clientid",
        "_confirm"
      ],
      [
        "print_",
        "unknown"
      ],
      [
        "02",
        "x"
      ],
      [
        "APL",
        "OG"
      ],
      [
        "BAD_",
        "REQU"
      ],
      [
        "ES",
        "T"
      ],
      [
        "E_",
        "W"
      ],
      [
        "Er",
        "ror"
      ],
      [
        "EAR",
        "_FE"
      ],
      [
        "ECK",
        "2"
      ],
      [
        "FU",
        "NC"
      ],
      [
        "HT",
        "TP_"
      ],
      [
        "IFI",
        "ER_SIZE"
      ],
      [
        "Opt",
        "ion"
      ],
      [
        "PP_",
        "OK"
      ],
      [
        "TIME",
        "OUT"
      ],
      [
        "_w",
        "akeup"
      ],
      [
        "_opt",
        "ions"
      ],
      [
        "bro",
        "wser"
      ],
      [
        "lon",
        "g"
      ],
      [
        "nu",
        "llptr"
      ],
      [
        "pip",
        "e"
      ],
      [
        "rame",
        "_control_"
      ],
      [
        "su",
        "pp"
      ],
      [
        "sho",
        "uld"
      ],
      [
        "swit",
        "ch"
      ],
      [
        "tab",
        "_socket"
      ],
      [
        "window",
        "_size_"
      ],
      [
        "defau",
        "lt"
      ],
      [
        "add_",
        "hash_entry"
      ],
      [
        "_contex",
        "t_"
      ],
      [
        "ndo_v",
        "flag"
      ],
      [
        "onMessage",
        "Receiv"
      ],
      [
        "opts_value",
        "s"
      ],
      [
        "unique",
        "_ptr"
      ],
      [
        "DECO",
        "DE_"
      ],
      [
        "ND_TCH",
        "ECK2"
      ],
      [
        "_SET_",
        "TIMEOUT"
      ],
      [
        "USB_CTRL",
        "_SET_TIMEOUT"
      ],
      [
        "nfs4_get",
        "attr_"
      ],
      [
        "bacconf",
        "opts_values"
      ],
      [
        "usb_control_",
        "msg"
      ],
      [
        "usb_sndctrl",
        "pipe"
      ],
      [
        "COPY",
        "MEM"
      ],
      [
        "begin_f",
        "rame_control_"
      ],
      [
        "USB_RECI",
        "P_"
      ],
      [
        "USB_REQ_CL",
        "EAR_FE"
      ],
      [
        "gdImageCreateFrom",
        "Webp"
      ],
      [
        "IdleTo",
        "Loade"
      ],
      [
        "NFS4_VER",
        "IFIER_SIZE"
      ],
      [
        "print_unknown",
        "_data"
      ],
      [
        "BAD_REQU",
        "EST"
      ],
      [
        "HTTP_",
        "BAD_REQUEST"
      ],
      [
        "browser",
        "_context_"
      ],
      [
        "onMessageReceiv",
        "ed"
      ],
      [
        "USB_REQ_CLEAR_FE",
        "ATURE"
      ],
      [
        "IdleToLoade",
        "dState"
      ],
      [
        "!",
        "\\"
      ],
      [
        "\"",
        ")"
      ],
      [
        "\"",
        ":"
      ],
      [
        "\"",
        "["
      ],
      [
        "\"",
        "),"
      ],
      [
        "%",
        "\""
      ],
      [
        "'",
        ")"
      ],
      [
        "(",
        "-"
      ],
      [
        "(",
        "));"
      ],
      [
        ")",
        "));"
      ],
      [
        ")",
        "\","
      ],
      [
        ")",
        "\"));"
      ],
      [
        "-",
        "-"
      ],
      [
        ".",
        "\\"
      ],
      [
        ".",
        "\");"
      ],
      [
        "0",
        "8"
      ],
      [
        "1",
        "G"
      ],
      [
        "1",
        "g"
      ],
      [
        "4",
        "_co"
      ],
      [
        "8",
        "String"
      ],
      [
        ";",
        "\""
      ],
      [
        "<",
        "="
      ],
      [
        "=",
        "%\""
      ],
      [
        ">",
        "("
      ],
      [
        "A",
        "D"
      ],
      [
        "A",
        "K"
      ],
      [
        "A",
        "P"
      ],
      [
        "A",
        "X"
      ],
      [
        "A",
        "Y"
      ],
      [
        "A",
        "d"
      ],
      [
        "A",
        "RE"
      ],
      [
        "A",
        "Co"
      ],
      [
        "A",
        "Message"
      ],
      [
        "A",
        "M_"
      ],
      [
        "B",
        "G"
      ],
      [
        "B",
        "I"
      ],
      [
        "B",
        "U"
      ],
      [
        "B",
        "ad"
      ],
      [
        "B",
        "uilder"
      ],
      [
        "B",
        "ase"
      ],
      [
        "B",
        "ind"
      ],
      [
        "B",
        "AC"
      ],
      [
        "C",
        "4_"
      ],
      [
        "C",
        "lient"
      ],
      [
        "C",
        "all"
      ],
      [
        "D",
        "O"
      ],
      [
        "D",
        "ead"
      ],
      [
        "E",
        "T"
      ],
      [
        "E",
        "X"
      ],
      [
        "E",
        "IN"
      ],
      [
        "E",
        "D_"
      ],
      [
        "E",
        "UP"
      ],
      [
        "E",
        "OP"
      ],
      [
        "E",
        "AD"
      ],
      [
        "F",
        "G"
      ],
      [
        "F",
        "_"
      ],
      [
        "F",
        "l"
      ],
      [
        "F",
        "P_"
      ],
      [
        "F",
        "or"
      ],
      [
        "F",
        "AC"
      ],
      [
        "F",
        "IL"
      ],
      [
        "F",
        "AIL"
      ],
      [
        "F",
        "PE"
      ],
      [
        "G",
        "M"
      ],
      [
        "G",
        "S"
      ],
      [
        "G",
        "l"
      ],
      [
        "G",
        "ot"
      ],
      [
        "G",
        "ET"
      ],
      [
        "G",
        "FP_"
      ],
      [
        "H",
        "S"
      ],
      [
        "H",
        "W"
      ],
      [
        "H",
        "OU"
      ],
      [
        "H",
        "AP"
      ],
      [
        "H",
        "EAD"
      ],
      [
        "I",
        "I"
      ],
      [
        "I",
        "n"
      ],
      [
        "I",
        "s"
      ],
      [
        "I",
        "nf"
      ],
      [
        "K",
        "ER"
      ],
      [
        "L",
        "D"
      ],
      [
        "L",
        "_"
      ],
      [
        "L",
        "oc"
      ],
      [
        "L",
        "OG"
      ],
      [
        "M",
        "O"
      ],
      [
        "M",
        "o"
      ],
      [
        "M",
        "ag"
      ],
      [
        "M",
        "ain"
      ],
      [
        "M",
        "ake"
      ],
      [
        "N",
        "_"
      ],
      [
        "N",
        "IN"
      ],
      [
        "N",
        "ame"
      ],
      [
        "N",
        "T_"
      ],
      [
        "N",
        "or"
      ],
      [
        "N",
        "AC"
      ],
      [
        "N",
        "um"
      ],
      [
        "O",
        "n"
      ],
      [
        "O",
        "p"
      ],
      [
        "O",
        "DE_"
      ],
      [
        "O",
        "MEM"
      ],
      [
        "P",
        "i"
      ],
      [
        "P",
        "aram"
      ],
      [
        "P",
        "OP"
      ],
      [
        "P",
        "roc"
      ],
      [
        "Q",
        "S"
      ],
      [
        "R",
        "AS"
      ],
      [
        "R",
        "ROR"
      ],
      [
        "R",
        "AY"
      ],
      [
        "R",
        "F_"
      ],
      [
        "R",
        "N_"
      ],
      [
        "S",
        "h"
      ],
      [
        "S",
        "er"
      ],
      [
        "S",
        "et"
      ],
      [
        "S",
        "ER"
      ],
      [
        "S",
        "_S"
      ],
      [
        "S",
        "UP"
      ],
      [
        "S",
        "1G"
      ],
      [
        "S",
        "HOU"
      ],
      [
        "T",
        "U"
      ],
      [
        "T",
        "h"
      ],
      [
        "T",
        "AR"
      ],
      [
        "T",
        "IO"
      ],
      [
        "T",
        "AIL"
      ],
      [
        "T",
        "E_W"
      ],
      [
        "U",
        "t"
      ],
      [
        "V",
        "alue"
      ],
      [
        "V",
        "AL"
      ],
      [
        "V",
        "8String"
      ],
      [
        "W",
        "r"
      ],
      [
        "W",
        "indow"
      ],
      [
        "X",
        "Y"
      ],
      [
        "Y",
        "_M"
      ],
      [
        "]",
        "\"));"
      ],
      [
        "_",
        "_"
      ],
      [
        "_",
        "r"
      ],
      [
        "_",
        "st"
      ],
      [
        "_",
        "ur"
      ],
      [
        "_",
        "ex"
      ],
      [
        "_",
        "ER"
      ],
      [
        "_",
        "ch"
      ],
      [
        "_",
        "dev"
      ],
      [
        "_",
        "char"
      ],
      [
        "_",
        "bit"
      ],
      [
        "_",
        "up"
      ],
      [
        "_",
        "mojo_services_"
      ],
      [
        "_",
        "url"
      ],
      [
        "_",
        "isolate"
      ],
      [
        "_",
        "of"
      ],
      [
        "_",
        "queue"
      ],
      [
        "_",
        "nfs4_pro"
      ],
      [
        "_",
        "begin_frame_control_"
      ],
      [
        "_",
        "HW"
      ],
      [
        "a",
        "ct"
      ],
      [
        "b",
        "pro"
      ],
      [
        "c",
        "k"
      ],
      [
        "c",
        "_p"
      ],
      [
        "d",
        "u"
      ],
      [
        "d",
        "ur"
      ],
      [
        "d",
        "ate"
      ],
      [
        "d",
        "is"
      ],
      [
        "d",
        "own"
      ],
      [
        "d",
        "Gl"
      ],
      [
        "e",
        "m"
      ],
      [
        "e",
        "v"
      ],
      [
        "e",
        "ed"
      ],
      [
        "e",
        "_wakeup"
      ],
      [
        "e",
        "ck"
      ],
      [
        "f",
        "8"
      ],
      [
        "f",
        "x"
      ],
      [
        "f",
        "re"
      ],
      [
        "f",
        "al"
      ],
      [
        "f",
        "ind"
      ],
      [
        "g",
        "d_"
      ],
      [
        "g",
        "fx"
      ],
      [
        "h",
        "ow"
      ],
      [
        "j",
        "ect"
      ],
      [
        "k",
        "m"
      ],
      [
        "k",
        "Nor"
      ],
      [
        "m",
        "in"
      ],
      [
        "m",
        "ent"
      ],
      [
        "m",
        "al"
      ],
      [
        "m",
        "po"
      ],
      [
        "m",
        "essage"
      ],
      [
        "m",
        "ain"
      ],
      [
        "m",
        "ap"
      ],
      [
        "n",
        "et"
      ],
      [
        "n",
        "ac"
      ],
      [
        "n",
        "on"
      ],
      [
        "n",
        "ew"
      ],
      [
        "o",
        "_isolate"
      ],
      [
        "p",
        "le"
      ],
      [
        "p",
        "_error"
      ],
      [
        "r",
        "v"
      ],
      [
        "r",
        "_n"
      ],
      [
        "s",
        "o"
      ],
      [
        "s",
        "s_"
      ],
      [
        "s",
        "c_"
      ],
      [
        "s",
        "ing"
      ],
      [
        "s",
        "ize"
      ],
      [
        "s",
        "From"
      ],
      [
        "s",
        "ync"
      ],
      [
        "s",
        "how"
      ],
      [
        "t",
        "up"
      ],
      [
        "t",
        "ect"
      ],
      [
        "t",
        "down"
      ],
      [
        "t",
        "e_wakeup"
      ],
      [
        "u",
        "nt"
      ],
      [
        "u",
        "re"
      ],
      [
        "u",
        "nd"
      ],
      [
        "u",
        "_char"
      ],
      [
        "u",
        "bpro"
      ],
      [
        "u",
        "tdown"
      ],
      [
        "v",
        "e"
      ],
      [
        "v",
        "ice"
      ],
      [
        "v",
        "ers"
      ],
      [
        "w",
        "or"
      ],
      [
        "w",
        "hat"
      ],
      [
        "y",
        "ph"
      ],
      [
        "|",
        "|"
      ],
      [
        "re",
        "c"
      ],
      [
        "re",
        "f"
      ],
      [
        "re",
        "ported"
      ],
      [
        "er",
        "Ad"
      ],
      [
        "er",
        "_of"
      ],
      [
        "st",
        "ar"
      ],
      [
        "le",
        "d"
      ],
      [
        "at",
        "ion"
      ],
      [
        "co",
        "de"
      ],
      [
        "co",
        "ntrol"
      ],
      [
        "in",
        "ject"
      ],
      [
        "s_",
        "all"
      ],
      [
        "de",
        "c"
      ],
      [
        "de",
        "tect"
      ],
      [
        "de",
        "code"
      ],
      [
        "tr",
        "un"
      ],
      [
        "return",
        "_v"
      ],
      [
        "it",
        "ed"
      ],
      [
        "it",
        "ial"
      ],
      [
        "ser",
        "r_n"
      ],
      [
        "ad",
        "Error"
      ],
      [
        "ar",
        "se"
      ],
      [
        "nd",
        "erAd"
      ],
      [
        "_co",
        "nst"
      ],
      [
        "_co",
        "mmit"
      ],
      [
        "ct",
        "_options"
      ],
      [
        "ct",
        "ure"
      ],
      [
        "str",
        "len"
      ],
      [
        "nf",
        "serr_n"
      ],
      [
        "ce",
        "du"
      ],
      [
        "ce",
        "ss_"
      ],
      [
        "ntent",
        "s_"
      ],
      [
        "ex",
        "ited"
      ],
      [
        "int",
        "32"
      ],
      [
        "int",
        "o_isolate"
      ],
      [
        "et",
        "ers"
      ],
      [
        "et",
        "clientid_confirm"
      ],
      [
        "al",
        "ready"
      ],
      [
        "am",
        "_ch"
      ],
      [
        "ld",
        "_"
      ],
      [
        "D_",
        "DE"
      ],
      [
        "RE",
        "AD_"
      ],
      [
        "RE",
        "TU"
      ],
      [
        "PR",
        "Id"
      ],
      [
        "ed",
        "_"
      ],
      [
        "mo",
        "te_wakeup"
      ],
      [
        "mo",
        "ve"
      ],
      [
        "((",
        "(\""
      ],
      [
        "INT",
        "ER"
      ],
      [
        "INT",
        "RF_"
      ],
      [
        "Co",
        "uld"
      ],
      [
        "Co",
        "ntrol"
      ],
      [
        "ER",
        "ROR"
      ],
      [
        "_s",
        "ync"
      ],
      [
        "_s",
        "1g"
      ],
      [
        "_s",
        "ubpro"
      ],
      [
        "_s",
        "etclientid_confirm"
      ],
      [
        "Im",
        "ple"
      ],
      [
        "US",
        "PEN"
      ],
      [
        "_C",
        "FG"
      ],
      [
        "_C",
        "RAS"
      ],
      [
        "ow",
        "ed_"
      ],
      [
        "un",
        "c_"
      ],
      [
        "headless_",
        "tab_socket"
      ],
      [
        "web_co",
        "ntents_"
      ],
      [
        "DE",
        "S1G"
      ],
      [
        "_S",
        "PE"
      ],
      [
        "_S",
        "TAR"
      ],
      [
        "_S",
        "USPEN"
      ],
      [
        "serdes_",
        "macro"
      ],
      [
        "serdes_",
        "init"
      ],
      [
        "serdes_",
        "set"
      ],
      [
        "USB",
        "_SPE"
      ],
      [
        "P_",
        "FUNC"
      ],
      [
        "_p",
        "arse"
      ],
      [
        "d_",
        "wor"
      ],
      [
        "oc",
        "ref"
      ],
      [
        "ot",
        "supp"
      ],
      [
        "th",
        "is"
      ],
      [
        "res",
        "p"
      ],
      [
        "res",
        "sing"
      ],
      [
        "AR",
        "K"
      ],
      [
        "AR",
        "GS"
      ],
      [
        "AR",
        "NIN"
      ],
      [
        "AR",
        "RAY"
      ],
      [
        "Create",
        "TabSocket"
      ],
      [
        "Create",
        "Param"
      ],
      [
        "Create",
        "V8String"
      ],
      [
        "Re",
        "ct"
      ],
      [
        "Re",
        "nderAd"
      ],
      [
        "is",
        "able"
      ],
      [
        "ph",
        "p_error"
      ],
      [
        "se",
        "ct_options"
      ],
      [
        "nfs4_",
        "label"
      ],
      [
        "nfs4_",
        "bitmask"
      ],
      [
        "nfs4_",
        "call"
      ],
      [
        "NU",
        "M_"
      ],
      [
        "T_",
        "32"
      ],
      [
        "T_",
        "PRO"
      ],
      [
        "T_",
        "FPE"
      ],
      [
        "_RE",
        "MO"
      ],
      [
        "_RE",
        "RROR"
      ],
      [
        "_error",
        "_re"
      ],
      [
        "c_",
        "get"
      ],
      [
        "gd",
        "IO"
      ],
      [
        "gd",
        "New"
      ],
      [
        "l_",
        "ready"
      ],
      [
        "or",
        "vers"
      ],
      [
        "pl",
        "ace_"
      ],
      [
        "usb",
        "_d"
      ],
      [
        "usb",
        "_dev"
      ],
      [
        "char",
        "act"
      ],
      [
        "Headless",
        "TabSocket"
      ],
      [
        "(!",
        "(("
      ],
      [
        "()",
        "->"
      ],
      [
        "TS",
        "UP"
      ],
      [
        "_d",
        "rv"
      ],
      [
        "_d",
        "ocref"
      ],
      [
        "ig",
        "_options"
      ],
      [
        "ize",
        "Window"
      ],
      [
        "jo",
        "Ser"
      ],
      [
        "st_",
        "rec"
      ],
      [
        "it_",
        "queue"
      ],
      [
        "all",
        "oc"
      ],
      [
        "service",
        "_r"
      ],
      [
        "phy",
        "_mode"
      ],
      [
        "phy",
        "_get"
      ],
      [
        "(*",
        "("
      ],
      [
        "AC",
        "T_32"
      ],
      [
        "EN",
        "T"
      ],
      [
        "EN",
        "OMEM"
      ],
      [
        "IL",
        "ENT"
      ],
      [
        "OG",
        "E"
      ],
      [
        "_in",
        "it"
      ],
      [
        "en",
        "URL"
      ],
      [
        "en",
        "um"
      ],
      [
        "im",
        "e"
      ],
      [
        "rp",
        "c_p"
      ],
      [
        "sc",
        "_confirm"
      ],
      [
        "wa",
        "it_queue"
      ],
      [
        "_conf",
        "ig_options"
      ],
      [
        "nfs_",
        "server"
      ],
      [
        "nfs_",
        "fh"
      ],
      [
        "_param",
        "eters"
      ],
      [
        "From",
        "Ut"
      ],
      [
        "vhost_poll",
        "_wakeup"
      ],
      [
        "vhost_poll",
        "_queue"
      ],
      [
        "AT",
        "TR"
      ],
      [
        "FE",
        "TCH"
      ],
      [
        "IO",
        "_HW"
      ],
      [
        "Lo",
        "adError"
      ],
      [
        "NFS",
        "PRO"
      ],
      [
        "_M",
        "AX"
      ],
      [
        "_M",
        "ARK"
      ],
      [
        "_f",
        "unc_"
      ],
      [
        "ant",
        "_ex"
      ],
      [
        "ain",
        "er_of"
      ],
      [
        "ace",
        "_func_"
      ],
      [
        "crash",
        "ed"
      ],
      [
        "fl",
        "ush"
      ],
      [
        "reg",
        "map"
      ],
      [
        "cont",
        "ainer_of"
      ],
      [
        "_CL",
        "AS"
      ],
      [
        "attr_",
        "bitmask"
      ],
      [
        "nfsd",
        "4_co"
      ],
      [
        "Report",
        "Dead"
      ],
      [
        "Report",
        "LoadError"
      ],
      [
        "rpc_",
        "argp"
      ],
      [
        "rpc_",
        "message"
      ],
      [
        "rpc_",
        "resp"
      ],
      [
        "File",
        "Ctx"
      ],
      [
        "print_",
        "bacp"
      ],
      [
        "AL",
        "OGE"
      ],
      [
        "CL",
        "ARE"
      ],
      [
        "CL",
        "NT_"
      ],
      [
        "NE",
        "L"
      ],
      [
        "NO",
        "T"
      ],
      [
        "NO",
        "TSUP"
      ],
      [
        "New",
        "FromUt"
      ],
      [
        "PH",
        "Y_M"
      ],
      [
        "PH",
        "P_FUNC"
      ],
      [
        "TR",
        "ACT_32"
      ],
      [
        "\\\"",
        ".\\"
      ],
      [
        "_re",
        "mote_wakeup"
      ],
      [
        "_get",
        "_const"
      ],
      [
        "ap",
        "Unique"
      ],
      [
        "call",
        "back"
      ],
      [
        "ftr",
        "ace_"
      ],
      [
        "ftr",
        "ace_func_"
      ],
      [
        "kWhat",
        "Fl"
      ],
      [
        "kWhat",
        "Sh"
      ],
      [
        "nexe",
        "_error_re"
      ],
      [
        "sp",
        "eed"
      ],
      [
        "set",
        "clientid_confirm"
      ],
      [
        "reque",
        "st"
      ],
      [
        "reque",
        "st_rec"
      ],
      [
        "DEVICE",
        "_REMO"
      ],
      [
        "USB_",
        "INTRF_"
      ],
      [
        "USB_",
        "DEVICE_REMO"
      ],
      [
        "seq_",
        "res"
      ],
      [
        "seq_",
        "args"
      ],
      [
        "zend",
        "_parse"
      ],
      [
        "zend",
        "_get_const"
      ],
      [
        "nfs4_pro",
        "cedu"
      ],
      [
        "ZEND_",
        "NUM_"
      ],
      [
        "ZEND_",
        "FETCH"
      ],
      [
        "enable",
        "d_"
      ],
      [
        "enable",
        "_begin_frame_control_"
      ],
      [
        "nfs_fattr",
        "_init"
      ],
      [
        "initial",
        "_size"
      ],
      [
        "initial",
        "_ur"
      ],
      [
        "nfsd4_",
        "decode"
      ],
      [
        "nfsd4_",
        "setclientid_confirm"
      ],
      [
        "APLOG",
        "_ER"
      ],
      [
        "APLOG",
        "_MARK"
      ],
      [
        "E_W",
        "ARNIN"
      ],
      [
        "Error",
        "Inf"
      ],
      [
        "FUNC",
        "_SUSPEN"
      ],
      [
        "supp",
        "ressing"
      ],
      [
        "tab_socket",
        "s_all"
      ],
      [
        "DECODE_",
        "HEAD"
      ],
      [
        "DECODE_",
        "TAIL"
      ],
      [
        "nfs4_getattr_",
        "arg"
      ],
      [
        "nfs4_getattr_",
        "res"
      ],
      [
        "begin_frame_control_",
        "enabled_"
      ],
      [
        "USB_RECIP_",
        "DEVICE"
      ],
      [
        "USB_RECIP_",
        "INTER"
      ],
      [
        "gdImageCreateFromWebp",
        "Ctx"
      ],
      [
        "\")",
        "\\"
      ],
      [
        "\"[",
        "|"
      ],
      [
        "08",
        "x"
      ],
      [
        "AK",
        "EUP"
      ],
      [
        "ACo",
        "dec"
      ],
      [
        "AM_",
        "LOG"
      ],
      [
        "BG",
        "D_DE"
      ],
      [
        "BI",
        "TS"
      ],
      [
        "BU",
        "F"
      ],
      [
        "Bad",
        "Imple"
      ],
      [
        "Base",
        "State"
      ],
      [
        "BAC",
        "POP"
      ],
      [
        "C4_",
        "CLNT_"
      ],
      [
        "Client",
        "Ptr"
      ],
      [
        "Call",
        "On"
      ],
      [
        "DO",
        "NE"
      ],
      [
        "EX",
        "TRACT_32"
      ],
      [
        "EIN",
        "VAL"
      ],
      [
        "ED_",
        "SUP"
      ],
      [
        "EOP",
        "NOTSUP"
      ],
      [
        "For",
        "Contents"
      ],
      [
        "FAC",
        "E"
      ],
      [
        "FIL",
        "E"
      ],
      [
        "FAIL",
        "URE"
      ],
      [
        "GM",
        "II"
      ],
      [
        "GET",
        "ATTR"
      ],
      [
        "GFP_",
        "KER"
      ],
      [
        "HS",
        "IO_HW"
      ],
      [
        "HAP",
        "PEN"
      ],
      [
        "In",
        "itial"
      ],
      [
        "Is",
        "olate"
      ],
      [
        "L_",
        "PRId"
      ],
      [
        "Loc",
        "al"
      ],
      [
        "Mo",
        "joSer"
      ],
      [
        "Mag",
        "ic"
      ],
      [
        "Main",
        "Th"
      ],
      [
        "Make",
        "Unique"
      ],
      [
        "Name",
        "_"
      ],
      [
        "NAC",
        "L_PRId"
      ],
      [
        "Op",
        "enURL"
      ],
      [
        "ODE_",
        "QS"
      ],
      [
        "Pi",
        "cture"
      ],
      [
        "Proc",
        "RenderAd"
      ],
      [
        "RN_",
        "NULL"
      ],
      [
        "Set",
        "Report"
      ],
      [
        "SER",
        "DES1G"
      ],
      [
        "S_S",
        "ILENT"
      ],
      [
        "SHOU",
        "LD"
      ],
      [
        "TIO",
        "N"
      ],
      [
        "TE_W",
        "AKEUP"
      ],
      [
        "Wr",
        "apUnique"
      ],
      [
        "XY",
        "_CRAS"
      ],
      [
        "__",
        "add_hash_entry"
      ],
      [
        "_st",
        "ate"
      ],
      [
        "_bit",
        "s"
      ],
      [
        "_up",
        "date"
      ],
      [
        "_mojo_services_",
        "into_isolate"
      ],
      [
        "_nfs4_pro",
        "c_get"
      ],
      [
        "dur",
        "ing"
      ],
      [
        "dis",
        "sect_options"
      ],
      [
        "dGl",
        "yph"
      ],
      [
        "em",
        "place_"
      ],
      [
        "ev",
        "ent"
      ],
      [
        "eck",
        "_url"
      ],
      [
        "fre",
        "e"
      ],
      [
        "fal",
        "se"
      ],
      [
        "gd_",
        "free"
      ],
      [
        "km",
        "alloc"
      ],
      [
        "kNor",
        "mal"
      ],
      [
        "min",
        "orvers"
      ],
      [
        "ment",
        "ation"
      ],
      [
        "mpo",
        "und"
      ],
      [
        "main",
        "_subpro"
      ],
      [
        "net",
        "dissect_options"
      ],
      [
        "nac",
        "l_ready"
      ],
      [
        "sc_",
        "clientid"
      ],
      [
        "size",
        "of"
      ],
      [
        "sFrom",
        "Picture"
      ],
      [
        "show",
        "_commit"
      ],
      [
        "unt",
        "ime"
      ],
      [
        "vice",
        "ForContents"
      ],
      [
        "star",
        "tup"
      ],
      [
        "control",
        "led"
      ],
      [
        "inject",
        "_mojo_services_into_isolate"
      ],
      [
        "detect",
        "ed"
      ],
      [
        "trun",
        "c"
      ],
      [
        "return_v",
        "alue"
      ],
      [
        "nfserr_n",
        "otsupp"
      ],
      [
        "int32",
        "_t"
      ],
      [
        "am_ch",
        "eck_url"
      ],
      [
        "READ_",
        "BUF"
      ],
      [
        "RETU",
        "RN_NULL"
      ],
      [
        "Could",
        "n"
      ],
      [
        "ERROR",
        "_STAR"
      ],
      [
        "headless_tab_socket",
        "_"
      ],
      [
        "serdes_init",
        "_s1g"
      ],
      [
        "serdes_set",
        "_mode"
      ],
      [
        "USB_SPE",
        "ED_SUP"
      ],
      [
        "d_wor",
        "ld_"
      ],
      [
        "ARRAY",
        "_SIZE"
      ],
      [
        "CreateTabSocket",
        "MojoSer"
      ],
      [
        "CreateParam",
        "s"
      ],
      [
        "isable",
        "_remote_wakeup"
      ],
      [
        "php_error",
        "_docref"
      ],
      [
        "nfs4_call",
        "_sync"
      ],
      [
        "T_PRO",
        "XY_CRAS"
      ],
      [
        "T_FPE",
        "ER"
      ],
      [
        "gdIO",
        "Ctx"
      ],
      [
        "gdNew",
        "FileCtx"
      ],
      [
        "usb_d",
        "isable_remote_wakeup"
      ],
      [
        "usb_dev",
        "ice"
      ],
      [
        "charact",
        "er"
      ],
      [
        "HeadlessTabSocket",
        "Impl"
      ],
      [
        "_drv",
        "data"
      ],
      [
        "service_r",
        "untime"
      ],
      [
        "phy_get",
        "_drvdata"
      ],
      [
        "rpc_p",
        "roc"
      ],
      [
        "wait_queue",
        "_t"
      ],
      [
        "NFSPRO",
        "C4_CLNT_"
      ],
      [
        "regmap",
        "_update"
      ],
      [
        "_CLAS",
        "S_SILENT"
      ],
      [
        "nfsd4_co",
        "mpound"
      ],
      [
        "ReportDead",
        "Nexe"
      ],
      [
        "print_bacp",
        "_config_options"
      ],
      [
        "NewFromUt",
        "f8"
      ],
      [
        "PHY_M",
        "ODE_QS"
      ],
      [
        "PHP_FUNC",
        "TION"
      ],
      [
        "ftrace_",
        "hash"
      ],
      [
        "ftrace_func_",
        "entry"
      ],
      [
        "kWhatFl",
        "ush"
      ],
      [
        "kWhatSh",
        "utdown"
      ],
      [
        "nexe_error_re",
        "ported"
      ],
      [
        "USB_INTRF_",
        "FUNC_SUSPEN"
      ],
      [
        "USB_DEVICE_REMO",
        "TE_WAKEUP"
      ],
      [
        "zend_parse",
        "_parameters"
      ],
      [
        "zend_get_const",
        "ant_ex"
      ],
      [
        "nfs4_procedu",
        "res"
      ],
      [
        "ZEND_NUM_",
        "ARGS"
      ],
      [
        "ZEND_FETCH",
        "_CLASS_SILENT"
      ],
      [
        "initial_ur",
        "l_"
      ],
      [
        "nfsd4_decode",
        "_setclientid_confirm"
      ],
      [
        "APLOG_ER",
        "R"
      ],
      [
        "E_WARNIN",
        "G"
      ],
      [
        "ErrorInf",
        "o"
      ],
      [
        "tab_sockets_all",
        "owed_"
      ],
      [
        "USB_RECIP_INTER",
        "FACE"
      ],
      [
        "AM_LOG",
        "_RERROR"
      ],
      [
        "BGD_DE",
        "CLARE"
      ],
      [
        "BadImple",
        "mentation"
      ],
      [
        "BACPOP",
        "T_FPEER"
      ],
      [
        "CallOn",
        "MainTh"
      ],
      [
        "EXTRACT_32",
        "BITS"
      ],
      [
        "EOPNOTSUP",
        "P"
      ],
      [
        "GFP_KER",
        "NEL"
      ],
      [
        "HSIO_HW",
        "_CFG"
      ],
      [
        "Initial",
        "izeWindow"
      ],
      [
        "NACL_PRId",
        "32"
      ],
      [
        "ProcRenderAd",
        "dGlyph"
      ],
      [
        "SERDES1G",
        "_MAX"
      ],
      [
        "_nfs4_proc_get",
        "attr"
      ],
      [
        "emplace_",
        "back"
      ],
      [
        "kNormal",
        "String"
      ],
      [
        "minorvers",
        "ion"
      ],
      [
        "main_subpro",
        "cess_"
      ],
      [
        "nacl_ready",
        "_state"
      ],
      [
        "inject_mojo_services_into_isolate",
        "d_world_"
      ],
      [
        "ERROR_STAR",
        "T_PROXY_CRAS"
      ],
      [
        "USB_SPEED_SUP",
        "ER"
      ],
      [
        "CreateTabSocketMojoSer",
        "viceForContents"
      ],
      [
        "NFSPROC4_CLNT_",
        "GETATTR"
      ],
      [
        "regmap_update",
        "_bits"
      ],
      [
        "nfsd4_compound",
        "args"
      ],
      [
        "PHY_MODE_QS",
        "GMII"
      ],
      [
        "USB_INTRF_FUNC_SUSPEN",
        "D"
      ],
      [
        "CallOnMainTh",
        "read"
      ],
      [
        "ProcRenderAddGlyph",
        "sFromPicture"
      ],
      [
        "ERROR_START_PROXY_CRAS",
        "H"
      ]
    ]
  }
}